t
##he
a
the
##in
s
w
o
##re
##nd
b
h
##er
m
i
##ou
c
f
##at
##ed
and
##en
to
of
##on
##is
d
##ing
th
p
he
##or
l
##es
in
##ll
##it
##ar
##as
##an
n
g
##om
be
ha
e
##le
##ot
y
##ut
##ow
##ic
wh
it
##ld
##ve
that
##ly
was
##id
##se
##st
on
##gh
##ent
re
you
##im
##ce
u
##ver
##ion
as
##et
for
##ay
we
his
##ith
##al
##ir
r
with
st
##ad
##ur
##ght
an
her
not
had
is
##ter
##her
##ac
##am
at
##oo
but
##ould
she
k
se
sa
sh
fr
him
so
##ill
me
##ain
su
##ight
##ch
##red
##ct
##all
##ro
##ke
##ess
##il
##ore
de
they
my
whe
all
##ich
ne
##ri
by
have
##ome
##pp
this
li
do
con
##us
which
ch
##ul
##qu
j
up
said
from
##ard
##ge
or
v
one
##th
no
ex
were
there
##pe
##and
##est
man
who
##ble
##ant
##ie
al
##res
##ous
##ust
##very
##ation
fe
them
##lf
when
##ind
##nt
##ame
##ra
go
##ers
##ast
##fe
##ood
kn
int
##ist
##art
are
##out
would
le
##os
their
##ong
what
##our
if
##ound
com
ab
out
wor
##em
will
##ak
mis
##ate
##ol
##um
##un
##itt
##ough
##ked
##ap
##ig
##one
been
##own
##ive
then
br
##ven
##if
ar
tr
##self
pl
ro
##ther
pr
##reat
un
af
sp
qu
pro
##ity
##hed
tw
ag
could
##ost
##ace
##ort
##ure
##ake
##ack
am
any
some
your
more
can
##au
tim
##ep
en
##ag
##ck
cl
into
##ry
##hing
now
##nder
##are
very
gr
##el
##ose
loo
bo
##ved
##op
other
did
##ance
than
##ittle
little
##ine
##ies
##way
##ite
like
##ide
##ass
bl
##able
lo
##urn
##ought
know
##other
time
im
dis
us
co
##fore
te
how
##ence
day
ad
##ade
about
##ice
see
over
##pt
##cc
too
##ink
fl
##wn
great
after
##pl
##de
per
again
##ment
upon
hand
##ab
##ree
has
##ish
##ci
only
##ally
well
should
po
mar
##ress
say
good
##ather
two
##ings
pe
##ount
our
##ire
##ving
down
##ars
##ert
##we
before
##ile
app
##ves
every
its
old
thr
mu
made
##ick
##ied
long
##te
##age
##ft
where
never
##ang
pre
must
sm
such
##ull
##ful
str
##ions
sc
off
came
##ious
##ue
miss
##ward
fir
##ild
even
under
these
##act
come
part
fo
##ated
##ness
rem
bec
##ord
may
##ty
think
much
##per
mister
way
##led
##orn
ey
let
cont
gl
thought
look
##ect
spe
back
##ise
bet
ye
##ady
##ach
##ans
just
first
here
##ren
ho
des
ob
own
##ried
##ud
##ary
went
himself
mo
##cl
men
##air
##ave
##ath
sl
##ff
##co
cr
##llow
res
might
##ily
seem
##int
##ip
beg
##ouse
##anc
wat
through
comp
##ber
car
away
em
get
imp
head
##oss
don
bel
life
▁
##e
##t
##a
##o
##n
##i
##h
##s
##r
##d
##l
##u
##m
##c
##w
##f
##g
##y
##p
##b
##v
##k
##'
##x
##j
##q
##z
